//AUTOGENERATED DO NOT CHANGE
unsigned char tflite_model[] = {0x20,0x00,0x00,0x00,0x54,0x46,0x4c,0x33,0x00,0x00,0x00,0x00,0x14,0x00,0x20,0x00,0x04,0x00,0x08,0x00,0x0c,0x00,0x10,0x00,0x14,0x00,0x00,0x00,0x18,0x00,0x1c,0x00,0x14,0x00,0x00,0x00,0x03,0x00,0x00,0x00,0x18,0x00,0x00,0x00,0x28,0x00,0x00,0x00,0xb4,0x00,0x00,0x00,0x28,0x00,0x00,0x00,0x5c,0x00,0x00,0x00,0x54,0x00,0x00,0x00,0x04,0x00,0x00,0x00,0x60,0x04,0x00,0x00,0x78,0x03,0x00,0x00,0xd8,0x01,0x00,0x00,0x50,0x01,0x00,0x00,0x01,0x00,0x00,0x00,0xb0,0x00,0x00,0x00,0x0c,0x00,0x00,0x00,0x8c,0x07,0x00,0x00,0x88,0x07,0x00,0x00,0x90,0x06,0x00,0x00,0xe0,0x05,0x00,0x00,0x50,0x05,0x00,0x00,0xbc,0x04,0x00,0x00,0x74,0x07,0x00,0x00,0x70,0x07,0x00,0x00,0x6c,0x07,0x00,0x00,0x68,0x07,0x00,0x00,0x64,0x07,0x00,0x00,0x3c,0x00,0x00,0x00,0x00,0x00,0x00,0x00,0x01,0x00,0x00,0x00,0x0c,0x00,0x00,0x00,0x08,0x00,0x0c,0x00,0x04,0x00,0x08,0x00,0x08,0x00,0x00,0x00,0x08,0x00,0x00,0x00,0x0b,0x00,0x00,0x00,0x13,0x00,0x00,0x00,0x6d,0x69,0x6e,0x5f,0x72,0x75,0x6e,0x74,0x69,0x6d,0x65,0x5f,0x76,0x65,0x72,0x73,0x69,0x6f,0x6e,0x00,0xd6,0xf9,0xff,0xff,0x04,0x00,0x00,0x00,0x10,0x00,0x00,0x00,0x31,0x2e,0x31,0x34,0x2e,0x30,0x00,0x00,0x00,0x00,0x00,0x00,0x00,0x00,0x00,0x00,0x0f,0x00,0x00,0x00,0x4d,0x4c,0x49,0x52,0x20,0x43,0x6f,0x6e,0x76,0x65,0x72,0x74,0x65,0x64,0x2e,0x00,0x00,0x00,0x0e,0x00,0x18,0x00,0x04,0x00,0x08,0x00,0x0c,0x00,0x10,0x00,0x14,0x00,0x0e,0x00,0x00,0x00,0x14,0x00,0x00,0x00,0x3c,0x00,0x00,0x00,0x40,0x00,0x00,0x00,0x44,0x00,0x00,0x00,0x58,0x00,0x00,0x00,0x0a,0x00,0x00,0x00,0x80,0x06,0x00,0x00,0xfc,0x05,0x00,0x00,0x4c,0x05,0x00,0x00,0xb4,0x04,0x00,0x00,0x14,0x04,0x00,0x00,0x90,0x03,0x00,0x00,0x94,0x02,0x00,0x00,0xa0,0x01,0x00,0x00,0xf0,0x00,0x00,0x00,0x68,0x00,0x00,0x00,0x01,0x00,0x00,0x00,0x00,0x00,0x00,0x00,0x01,0x00,0x00,0x00,0x09,0x00,0x00,0x00,0x05,0x00,0x00,0x00,0x1c,0x03,0x00,0x00,0x1c,0x02,0x00,0x00,0x44,0x01,0x00,0x00,0x98,0x00,0x00,0x00,0x10,0x00,0x00,0x00,0x04,0x00,0x00,0x00,0x6d,0x61,0x69,0x6e,0x00,0x00,0x00,0x00,0x86,0xff,0xff,0xff,0x03,0x00,0x00,0x00,0x10,0x00,0x00,0x00,0x04,0x00,0x00,0x00,0x01,0x00,0x00,0x00,0x09,0x00,0x00,0x00,0x01,0x00,0x00,0x00,0x08,0x00,0x00,0x00,0x08,0xfd,0xff,0xff,0x06,0x00,0x00,0x00,0x00,0x00,0x00,0x06,0x02,0x00,0x00,0x00,0x20,0xfa,0xff,0xff,0x14,0x00,0x00,0x00,0x0a,0x00,0x00,0x00,0x24,0x00,0x00,0x00,0x34,0x00,0x00,0x00,0x10,0x00,0x00,0x00,0x02,0x00,0x00,0x00,0x01,0x00,0x00,0x00,0x03,0x00,0x00,0x00,0x02,0x00,0x00,0x00,0xff,0xff,0xff,0xff,0x03,0x00,0x00,0x00,0x08,0x00,0x00,0x00,0x49,0x64,0x65,0x6e,0x74,0x69,0x74,0x79,0x00,0x00,0x00,0x00,0x04,0x00,0x06,0x00,0x04,0x00,0x00,0x00,0x00,0x00,0x0a,0x00,0x10,0x00,0x04,0x00,0x08,0x00,0x0c,0x00,0x0a,0x00,0x00,0x00,0x02,0x00,0x00,0x00,0x10,0x00,0x00,0x00,0x04,0x00,0x00,0x00,0x01,0x00,0x00,0x00,0x08,0x00,0x00,0x00,0x01,0x00,0x00,0x00,0x07,0x00,0x00,0x00,0x8c,0xfd,0xff,0xff,0x0e,0x00,0x00,0x00,0x00,0x00,0x00,0x0e,0x02,0x00,0x00,0x00,0x80,0xfd,0xff,0xff,0x00,0x00,0x00,0x09,0x14,0x00,0x00,0x00,0x09,0x00,0x00,0x00,0x24,0x00,0x00,0x00,0x30,0x00,0x00,0x00,0x10,0x00,0x00,0x00,0x02,0x00,0x00,0x00,0x01,0x00,0x00,0x00,0x03,0x00,0x00,0x00,0x02,0x00,0x00,0x00,0xff,0xff,0xff,0xff,0x03,0x00,0x00,0x00,0x09,0x00,0x00,0x00,0x49,0x64,0x65,0x6e,0x74,0x69,0x74,0x79,0x31,0x00,0x00,0x00,0x14,0xfb,0xff,0xff,0x08,0x00,0x00,0x00,0x0c,0x00,0x00,0x00,0x01,0x00,0x00,0x00,0x00,0x00,0x80,0x3b,0x01,0x00,0x00,0x00,0x80,0xff,0xff,0xff,0xff,0xff,0xff,0xff,0x00,0x00,0x00,0x00,0x00,0x00,0x0e,0x00,0x18,0x00,0x08,0x00,0x0c,0x00,0x10,0x00,0x07,0x00,0x14,0x00,0x0e,0x00,0x00,0x00,0x00,0x00,0x00,0x08,0x01,0x00,0x00,0x00,0x18,0x00,0x00,0x00,0x0c,0x00,0x00,0x00,0x04,0x00,0x00,0x00,0xdc,0xfa,0xff,0xff,0x01,0x00,0x00,0x00,0x07,0x00,0x00,0x00,0x03,0x00,0x00,0x00,0x06,0x00,0x00,0x00,0x03,0x00,0x00,0x00,0x04,0x00,0x00,0x00,0x2c,0xfe,0xff,0xff,0x00,0x00,0x00,0x09,0x14,0x00,0x00,0x00,0x08,0x00,0x00,0x00,0x24,0x00,0x00,0x00,0x5c,0x00,0x00,0x00,0x10,0x00,0x00,0x00,0x02,0x00,0x00,0x00,0x01,0x00,0x00,0x00,0x03,0x00,0x00,0x00,0x02,0x00,0x00,0x00,0xff,0xff,0xff,0xff,0x03,0x00,0x00,0x00,0x34,0x00,0x00,0x00,0x73,0x65,0x71,0x75,0x65,0x6e,0x74,0x69,0x61,0x6c,0x2f,0x64,0x65,0x6e,0x73,0x65,0x5f,0x31,0x2f,0x4d,0x61,0x74,0x4d,0x75,0x6c,0x3b,0x73,0x65,0x71,0x75,0x65,0x6e,0x74,0x69,0x61,0x6c,0x2f,0x64,0x65,0x6e,0x73,0x65,0x5f,0x31,0x2f,0x42,0x69,0x61,0x73,0x41,0x64,0x64,0x00,0x00,0x00,0x00,0xec,0xfb,0xff,0xff,0x08,0x00,0x00,0x00,0x0c,0x00,0x00,0x00,0x01,0x00,0x00,0x00,0x71,0xb0,0x64,0x3d,0x01,0x00,0x00,0x00,0xe8,0xff,0xff,0xff,0xff,0xff,0xff,0xff,0x00,0x00,0x0e,0x00,0x1a,0x00,0x08,0x00,0x0c,0x00,0x10,0x00,0x07,0x00,0x14,0x00,0x0e,0x00,0x00,0x00,0x00,0x00,0x00,0x08,0x01,0x00,0x00,0x00,0x24,0x00,0x00,0x00,0x18,0x00,0x00,0x00,0x0c,0x00,0x00,0x00,0x00,0x00,0x06,0x00,0x08,0x00,0x07,0x00,0x06,0x00,0x00,0x00,0x00,0x00,0x00,0x01,0x01,0x00,0x00,0x00,0x06,0x00,0x00,0x00,0x03,0x00,0x00,0x00,0x05,0x00,0x00,0x00,0x01,0x00,0x00,0x00,0x02,0x00,0x00,0x00,0x28,0xff,0xff,0xff,0x09,0x00,0x00,0x00,0x00,0x00,0x00,0x09,0x04,0x00,0x00,0x00,0x1c,0xff,0xff,0xff,0x00,0x00,0x00,0x09,0x14,0x00,0x00,0x00,0x07,0x00,0x00,0x00,0x24,0x00,0x00,0x00,0x6c,0x00,0x00,0x00,0x10,0x00,0x00,0x00,0x02,0x00,0x00,0x00,0x01,0x00,0x00,0x00,0x08,0x00,0x00,0x00,0x02,0x00,0x00,0x00,0xff,0xff,0xff,0xff,0x08,0x00,0x00,0x00,0x46,0x00,0x00,0x00,0x73,0x65,0x71,0x75,0x65,0x6e,0x74,0x69,0x61,0x6c,0x2f,0x64,0x65,0x6e,0x73,0x65,0x2f,0x4d,0x61,0x74,0x4d,0x75,0x6c,0x3b,0x73,0x65,0x71,0x75,0x65,0x6e,0x74,0x69,0x61,0x6c,0x2f,0x64,0x65,0x6e,0x73,0x65,0x2f,0x42,0x69,0x61,0x73,0x41,0x64,0x64,0x3b,0x73,0x65,0x71,0x75,0x65,0x6e,0x74,0x69,0x61,0x6c,0x2f,0x64,0x65,0x6e,0x73,0x65,0x2f,0x52,0x65,0x6c,0x75,0x00,0x00,0xec,0xfc,0xff,0xff,0x08,0x00,0x00,0x00,0x0c,0x00,0x00,0x00,0x01,0x00,0x00,0x00,0x00,0x25,0x0f,0x3b,0x01,0x00,0x00,0x00,0x80,0xff,0xff,0xff,0xff,0xff,0xff,0xff,0x00,0x00,0x0a,0x00,0x0c,0x00,0x00,0x00,0x04,0x00,0x08,0x00,0x0a,0x00,0x00,0x00,0x10,0x00,0x00,0x00,0x04,0x00,0x00,0x00,0x01,0x00,0x00,0x00,0x05,0x00,0x00,0x00,0x01,0x00,0x00,0x00,0x00,0x00,0x00,0x00,0x0c,0x00,0x10,0x00,0x0b,0x00,0x00,0x00,0x0c,0x00,0x04,0x00,0x0c,0x00,0x00,0x00,0x72,0x00,0x00,0x00,0x00,0x00,0x00,0x72,0x01,0x00,0x00,0x00,0x14,0x00,0x1c,0x00,0x08,0x00,0x07,0x00,0x0c,0x00,0x10,0x00,0x14,0x00,0x00,0x00,0x00,0x00,0x18,0x00,0x14,0x00,0x00,0x00,0x00,0x00,0x00,0x09,0x14,0x00,0x00,0x00,0x06,0x00,0x00,0x00,0x24,0x00,0x00,0x00,0x34,0x00,0x00,0x00,0x10,0x00,0x00,0x00,0x02,0x00,0x00,0x00,0x01,0x00,0x00,0x00,0x02,0x00,0x00,0x00,0x02,0x00,0x00,0x00,0xff,0xff,0xff,0xff,0x02,0x00,0x00,0x00,0x0c,0x00,0x00,0x00,0x74,0x66,0x6c,0x2e,0x71,0x75,0x61,0x6e,0x74,0x69,0x7a,0x65,0x00,0x00,0x00,0x00,0xac,0xfd,0xff,0xff,0x08,0x00,0x00,0x00,0x0c,0x00,0x00,0x00,0x01,0x00,0x00,0x00,0x2c,0x80,0x80,0x3b,0x01,0x00,0x00,0x00,0x80,0xff,0xff,0xff,0xff,0xff,0xff,0xff,0x3e,0xfe,0xff,0xff,0x04,0x00,0x00,0x00,0x0c,0x00,0x00,0x00,0x83,0xa5,0xfe,0xff,0x5a,0x03,0x02,0x00,0x50,0x41,0x00,0x00,0x32,0xfe,0xff,0xff,0x00,0x00,0x00,0x02,0x10,0x00,0x00,0x00,0x05,0x00,0x00,0x00,0x10,0x00,0x00,0x00,0x44,0x00,0x00,0x00,0x01,0x00,0x00,0x00,0x03,0x00,0x00,0x00,0x32,0x00,0x00,0x00,0x73,0x65,0x71,0x75,0x65,0x6e,0x74,0x69,0x61,0x6c,0x2f,0x64,0x65,0x6e,0x73,0x65,0x5f,0x31,0x2f,0x42,0x69,0x61,0x73,0x41,0x64,0x64,0x2f,0x52,0x65,0x61,0x64,0x56,0x61,0x72,0x69,0x61,0x62,0x6c,0x65,0x4f,0x70,0x2f,0x72,0x65,0x73,0x6f,0x75,0x72,0x63,0x65,0x00,0x00,0x3c,0xfe,0xff,0xff,0x08,0x00,0x00,0x00,0x0c,0x00,0x00,0x00,0x01,0x00,0x00,0x00,0x79,0x3f,0x86,0x38,0x01,0x00,0x00,0x00,0x00,0x00,0x00,0x00,0x00,0x00,0x00,0x00,0xce,0xfe,0xff,0xff,0x04,0x00,0x00,0x00,0x18,0x00,0x00,0x00,0xfe,0xef,0x14,0xef,0xf8,0xec,0x2a,0x11,0xfe,0x02,0x0c,0xf8,0x87,0x13,0x81,0x03,0x14,0xfa,0xe7,0xed,0x19,0x0b,0xfc,0x11,0xce,0xfe,0xff,0xff,0x00,0x00,0x00,0x09,0x10,0x00,0x00,0x00,0x04,0x00,0x00,0x00,0x14,0x00,0x00,0x00,0x30,0x00,0x00,0x00,0x02,0x00,0x00,0x00,0x03,0x00,0x00,0x00,0x08,0x00,0x00,0x00,0x19,0x00,0x00,0x00,0x73,0x65,0x71,0x75,0x65,0x6e,0x74,0x69,0x61,0x6c,0x2f,0x64,0x65,0x6e,0x73,0x65,0x5f,0x31,0x2f,0x4d,0x61,0x74,0x4d,0x75,0x6c,0x00,0x00,0x00,0xc4,0xfe,0xff,0xff,0x08,0x00,0x00,0x00,0x0c,0x00,0x00,0x00,0x01,0x00,0x00,0x00,0xde,0x16,0xf0,0x3c,0x01,0x00,0x00,0x00,0x00,0x00,0x00,0x00,0x00,0x00,0x00,0x00,0x00,0x00,0x00,0x00,0x5a,0xff,0xff,0xff,0x04,0x00,0x00,0x00,0x20,0x00,0x00,0x00,0x26,0xfe,0xff,0xff,0x00,0x00,0x00,0x00,0x00,0x00,0x00,0x00,0x00,0x00,0x00,0x00,0x33,0xea,0xff,0xff,0x91,0xff,0xff,0xff,0xac,0x27,0xfe,0xff,0x00,0x00,0x00,0x00,0x62,0xff,0xff,0xff,0x00,0x00,0x00,0x02,0x10,0x00,0x00,0x00,0x03,0x00,0x00,0x00,0x10,0x00,0x00,0x00,0x44,0x00,0x00,0x00,0x01,0x00,0x00,0x00,0x08,0x00,0x00,0x00,0x30,0x00,0x00,0x00,0x73,0x65,0x71,0x75,0x65,0x6e,0x74,0x69,0x61,0x6c,0x2f,0x64,0x65,0x6e,0x73,0x65,0x2f,0x42,0x69,0x61,0x73,0x41,0x64,0x64,0x2f,0x52,0x65,0x61,0x64,0x56,0x61,0x72,0x69,0x61,0x62,0x6c,0x65,0x4f,0x70,0x2f,0x72,0x65,0x73,0x6f,0x75,0x72,0x63,0x65,0x00,0x00,0x00,0x00,0x6c,0xff,0xff,0xff,0x08,0x00,0x00,0x00,0x0c,0x00,0x00,0x00,0x01,0x00,0x00,0x00,0xef,0xdd,0xfe,0x37,0x01,0x00,0x00,0x00,0x00,0x00,0x00,0x00,0x00,0x00,0x00,0x00,0x00,0x00,0x06,0x00,0x08,0x00,0x04,0x00,0x06,0x00,0x00,0x00,0x04,0x00,0x00,0x00,0x10,0x00,0x00,0x00,0x4b,0xa4,0xe9,0xdf,0xf3,0xc5,0x0f,0xcd,0xcb,0x52,0xca,0x00,0x79,0x7f,0xac,0xe5,0x00,0x00,0x0e,0x00,0x18,0x00,0x08,0x00,0x07,0x00,0x0c,0x00,0x10,0x00,0x14,0x00,0x0e,0x00,0x00,0x00,0x00,0x00,0x00,0x09,0x10,0x00,0x00,0x00,0x02,0x00,0x00,0x00,0x14,0x00,0x00,0x00,0x38,0x00,0x00,0x00,0x02,0x00,0x00,0x00,0x08,0x00,0x00,0x00,0x02,0x00,0x00,0x00,0x17,0x00,0x00,0x00,0x73,0x65,0x71,0x75,0x65,0x6e,0x74,0x69,0x61,0x6c,0x2f,0x64,0x65,0x6e,0x73,0x65,0x2f,0x4d,0x61,0x74,0x4d,0x75,0x6c,0x00,0x0c,0x00,0x0c,0x00,0x00,0x00,0x00,0x00,0x04,0x00,0x08,0x00,0x0c,0x00,0x00,0x00,0x08,0x00,0x00,0x00,0x0c,0x00,0x00,0x00,0x01,0x00,0x00,0x00,0xb8,0xdf,0xfd,0x3b,0x01,0x00,0x00,0x00,0x00,0x00,0x00,0x00,0x00,0x00,0x00,0x00,0x14,0x00,0x18,0x00,0x04,0x00,0x00,0x00,0x08,0x00,0x0c,0x00,0x10,0x00,0x00,0x00,0x00,0x00,0x14,0x00,0x14,0x00,0x00,0x00,0x14,0x00,0x00,0x00,0x01,0x00,0x00,0x00,0x24,0x00,0x00,0x00,0x30,0x00,0x00,0x00,0x10,0x00,0x00,0x00,0x02,0x00,0x00,0x00,0x01,0x00,0x00,0x00,0x02,0x00,0x00,0x00,0x02,0x00,0x00,0x00,0xff,0xff,0xff,0xff,0x02,0x00,0x00,0x00,0x0b,0x00,0x00,0x00,0x64,0x65,0x6e,0x73,0x65,0x5f,0x69,0x6e,0x70,0x75,0x74,0x00,0xfc,0xff,0xff,0xff,0x04,0x00,0x04,0x00,0x04,0x00,0x00,0x00};
unsigned int tflite_model_len = 2032;
